memory_initialization_radix=2;
memory_initialization_vector=
00000000
00000000
00000000
00000001
00000001
00000001
00000010
00000010
00000010
00000010
00000010
00000011
00000011
00000011
00000100
00000100
00000100
00000100
00000100
00000101
00000101
00000101
00000110
00000110
00000110
00000110
00000110
00000111
00000111
00000111
00001000
00001000
11111000
11111000
11111000
11110111
11110111
11110111
11110110
11110110
11110110
11110110
11110110
11110101
11110101
11110101
11110100
11110100
11110100
11110100
11110100
11110011
11110011
11110011
11110010
11110010
11110010
11110010
11110010
11110001
11110001
11110001
11110000
11110000
